custom_quantize_layers:
    /model.0/conv/Conv_output_0: float16
    /model.0/act/Mul_output_0: float16
    /model.1/conv/Conv_output_0: float16
    /model.1/act/Mul_output_0: float16
    /model.2/cv1/conv/Conv_output_0: float16
    /model.2/cv1/act/Mul_output_0: float16
    /model.2/Split_output_0: float16
    /model.2/Concat_output_0: float16
    /model.2/Split_output_1: float16
    /model.2/m.0/cv1/conv/Conv_output_0: float16
    /model.2/m.0/Add_output_0: float16
    /model.2/m.0/cv1/act/Mul_output_0: float16
    /model.2/m.0/cv2/conv/Conv_output_0: float16
    /model.2/m.0/cv2/act/Mul_output_0: float16
    /model.2/cv2/conv/Conv_output_0: float16
    /model.2/cv2/act/Mul_output_0: float16
    /model.3/conv/Conv_output_0: float16
    /model.3/act/Mul_output_0: float16
    /model.4/cv1/conv/Conv_output_0: float16
    /model.4/Split_output_0: float16
    /model.4/Concat_output_0: float16
    /model.4/m.0/cv2/act/Mul_output_0: float16
    /model.4/m.0/Add_output_0: float16
    /model.4/m.1/cv2/act/Mul_output_0: float16
    /model.4/m.1/Add_output_0: float16
    /model.6/cv1/act/Mul_output_0: float16
    /model.6/Split_output_0: float16
    /model.6/Concat_output_0: float16
    /model.6/m.1/cv2/act/Mul_output_0: float16
    /model.6/m.1/Add_output_0: float16
    /model.6/cv2/conv/Conv_output_0: float16
    /model.8/cv1/act/Mul_output_0: float16
    /model.8/Split_output_0: float16
    /model.8/Concat_output_0: float16
    /model.8/m.0/cv2/act/Mul_output_0: float16
    /model.8/m.0/Add_output_0: float16
    /model.8/cv2/conv/Conv_output_0: float16
    /model.15/m.0/cv2/act/Mul_output_0: float16
    /model.15/Concat_output_0: float16
    /model.15/cv2/conv/Conv_output_0: float16
    /model.18/m.0/cv2/act/Mul_output_0: float16
    /model.18/Concat_output_0: float16
    /model.22/cv2.2/cv2.2.0/act/Mul_output_0: float16
    /model.22/cv2.2/cv2.2.1/conv/Conv_output_0: float16
    /model.22/cv2.2/cv2.2.1/act/Mul_output_0: float16
    /model.22/cv2.2/cv2.2.2/Conv_output_0: float16
    /model.22/Concat_2_output_0: float16
    /model.22/cv3.2/cv3.2.1/act/Mul_output_0: float16
    /model.22/cv3.2/cv3.2.2/Conv_output_0: float16
    /model.22/Reshape_2_output_0_shape4_/model.22/Concat_3: float16
    /model.22/Concat_3_output_0: float16
    /model.22/cv2.1/cv2.1.0/act/Mul_output_0: float16
    /model.22/cv2.1/cv2.1.1/conv/Conv_output_0: float16
    /model.22/cv2.1/cv2.1.1/act/Mul_output_0: float16
    /model.22/cv2.1/cv2.1.2/Conv_output_0: float16
    /model.22/Concat_1_output_0: float16
    /model.22/cv3.1/cv3.1.1/act/Mul_output_0: float16
    /model.22/cv3.1/cv3.1.2/Conv_output_0: float16
    /model.22/Reshape_1_output_0_shape4_/model.22/Concat_3: float16
    /model.22/cv2.0/cv2.0.1/act/Mul_output_0: float16
    /model.22/cv2.0/cv2.0.2/Conv_output_0: float16
    /model.22/cv3.0/cv3.0.0/act/Mul_output_0: float16
    /model.22/cv3.0/cv3.0.1/conv/Conv_output_0: float16
    /model.22/cv3.0/cv3.0.1/act/Mul_output_0: float16
    /model.22/cv3.0/cv3.0.2/Conv_output_0: float16
    /model.22/Concat_output_0: float16
    /model.22/Reshape_output_0_shape4_/model.22/Concat_3: float16
    /model.22/Split_output_0_shape4: float16
    /model.22/dfl/Softmax_output_0: float16
    /model.22/dfl/Transpose_1_output_0: float16
    /model.22/dfl/conv/Conv_output_0: float16
    /model.22/Concat_4_output_0_shape4_/model.22/Mul_2_before_conv: float16
    /model.22/Concat_4_output_0_shape4_/model.22/Mul_2: float16
    /model.22/Mul_2_output_0: float16
    /model.22/Concat_5_swap_concat_reshape_i0_out: float16
    output0_shape4: float16
    /model.22/Sigmoid_output_0: float16
    /model.22/Concat_5_swap_concat_reshape_i1_out: float16
    output0_int8: float16
    output0: float16
quantize_parameters:
    images:
        qtype: asymmetric_quantized
        qmethod: layer
        dtype: float32
        min:
        -   0.0
        max:
        -   1.0
        scale: []
        zero_point: []
        ori_min:
        -   0.0
        ori_max:
        -   1.0
    /model.0/conv/Conv_output_0:
        qtype: asymmetric_quantized
        qmethod: layer
        dtype: int8
        min:
        -   -87.01805114746094
        max:
        -   95.78473663330078
        scale:
        -   0.7168736775716146
        zero_point:
        -   -7
        ori_min:
        -   -87.01805114746094
        ori_max:
        -   95.78473663330078
    /model.0/act/Mul_output_0:
        qtype: asymmetric_quantized
        qmethod: layer
        dtype: int8
        min:
        -   -0.27846458554267883
        max:
        -   95.78473663330078
        scale:
        -   0.3767184361523273
        zero_point:
        -   -127
        ori_min:
        -   -0.27846458554267883
        ori_max:
        -   95.78473663330078
    /model.1/conv/Conv_output_0:
        qtype: asymmetric_quantized
        qmethod: layer
        dtype: int8
        min:
        -   -210.22100830078125
        max:
        -   253.6592254638672
        scale:
        -   1.8191381716260724
        zero_point:
        -   -12
        ori_min:
        -   -210.22100830078125
        ori_max:
        -   253.6592254638672
    /model.1/act/Mul_output_0:
        qtype: asymmetric_quantized
        qmethod: layer
        dtype: int8
        min:
        -   -0.27846458554267883
        max:
        -   253.6592254638672
        scale:
        -   0.9958340786251367
        zero_point:
        -   -128
        ori_min:
        -   -0.27846458554267883
        ori_max:
        -   253.6592254638672
    /model.2/cv1/conv/Conv_output_0:
        qtype: asymmetric_quantized
        qmethod: layer
        dtype: int8
        min:
        -   -154.8735809326172
        max:
        -   50.35056686401367
        scale:
        -   0.8048005795946308
        zero_point:
        -   64
        ori_min:
        -   -154.8735809326172
        ori_max:
        -   50.35056686401367
    /model.2/cv1/act/Mul_output_0:
        qtype: asymmetric_quantized
        qmethod: layer
        dtype: int8
        min:
        -   -0.27846458554267883
        max:
        -   50.35056686401367
        scale:
        -   0.1985452213708092
        zero_point:
        -   -127
        ori_min:
        -   -0.27846458554267883
        ori_max:
        -   50.35056686401367
    /model.2/Split_output_0:
        qtype: asymmetric_quantized
        qmethod: layer
        dtype: int8
        min:
        -   -0.27846458554267883
        max:
        -   50.35056686401367
        scale:
        -   0.1985452213708092
        zero_point:
        -   -127
        ori_min:
        -   -0.27846458554267883
        ori_max:
        -   50.35056686401367
    /model.2/Split_output_1:
        qtype: asymmetric_quantized
        qmethod: layer
        dtype: int8
        min:
        -   -0.27846458554267883
        max:
        -   26.200525283813477
        scale:
        -   0.10383917595825944
        zero_point:
        -   -125
        ori_min:
        -   -0.27846458554267883
        ori_max:
        -   26.200525283813477
    /model.2/m.0/cv1/conv/Conv_output_0:
        qtype: asymmetric_quantized
        qmethod: layer
        dtype: int8
        min:
        -   -63.584632873535156
        max:
        -   54.54772186279297
        scale:
        -   0.46326413622089463
        zero_point:
        -   9
        ori_min:
        -   -63.584632873535156
        ori_max:
        -   54.54772186279297
    /model.2/m.0/cv1/act/Mul_output_0:
        qtype: asymmetric_quantized
        qmethod: layer
        dtype: int8
        min:
        -   -0.27846458554267883
        max:
        -   54.54772186279297
        scale:
        -   0.21500465273857117
        zero_point:
        -   -127
        ori_min:
        -   -0.27846458554267883
        ori_max:
        -   54.54772186279297
    /model.2/m.0/cv2/conv/Conv_output_0:
        qtype: asymmetric_quantized
        qmethod: layer
        dtype: int8
        min:
        -   -44.1457405090332
        max:
        -   42.62078857421875
        scale:
        -   0.34026089836569395
        zero_point:
        -   2
        ori_min:
        -   -44.1457405090332
        ori_max:
        -   42.62078857421875
    /model.2/m.0/cv2/act/Mul_output_0:
        qtype: asymmetric_quantized
        qmethod: layer
        dtype: int8
        min:
        -   -0.27846458554267883
        max:
        -   42.62078857421875
        scale:
        -   0.16823236533239777
        zero_point:
        -   -126
        ori_min:
        -   -0.27846458554267883
        ori_max:
        -   42.62078857421875
    /model.2/m.0/Add_output_0:
        qtype: asymmetric_quantized
        qmethod: layer
        dtype: int8
        min:
        -   -0.5569291114807129
        max:
        -   54.84088134765625
        scale:
        -   0.2172463155260273
        zero_point:
        -   -125
        ori_min:
        -   -0.5569291114807129
        ori_max:
        -   54.84088134765625
    /model.2/Concat_output_0:
        qtype: asymmetric_quantized
        qmethod: layer
        dtype: int8
        min:
        -   -0.5569291114807129
        max:
        -   54.84088134765625
        scale:
        -   0.2172463155260273
        zero_point:
        -   -125
        ori_min:
        -   -0.5569291114807129
        ori_max:
        -   54.84088134765625
    /model.2/cv2/conv/Conv_output_0:
        qtype: asymmetric_quantized
        qmethod: layer
        dtype: int8
        min:
        -   -43.87169647216797
        max:
        -   16.53457260131836
        scale:
        -   0.2368873296999464
        zero_point:
        -   57
        ori_min:
        -   -43.87169647216797
        ori_max:
        -   16.53457260131836
    /model.2/cv2/act/Mul_output_0:
        qtype: asymmetric_quantized
        qmethod: layer
        dtype: int8
        min:
        -   -0.27846458554267883
        max:
        -   16.534570693969727
        scale:
        -   0.06593347168436238
        zero_point:
        -   -124
        ori_min:
        -   -0.27846458554267883
        ori_max:
        -   16.534570693969727
    /model.3/conv/Conv_output_0:
        qtype: asymmetric_quantized
        qmethod: layer
        dtype: int8
        min:
        -   -14.775135040283203
        max:
        -   9.601015090942383
        scale:
        -   0.09559274561264935
        zero_point:
        -   27
        ori_min:
        -   -14.775135040283203
        ori_max:
        -   9.601015090942383
    /model.3/act/Mul_output_0:
        qtype: asymmetric_quantized
        qmethod: layer
        dtype: int8
        min:
        -   -0.27846458554267883
        max:
        -   9.600364685058594
        scale:
        -   0.038740506943534404
        zero_point:
        -   -121
        ori_min:
        -   -0.27846458554267883
        ori_max:
        -   9.600364685058594
    /model.4/cv1/conv/Conv_output_0:
        qtype: asymmetric_quantized
        qmethod: layer
        dtype: int8
        min:
        -   -14.648819923400879
        max:
        -   10.949091911315918
        scale:
        -   0.10038396797928156
        zero_point:
        -   18
        ori_min:
        -   -14.648819923400879
        ori_max:
        -   10.949091911315918
    /model.4/cv1/act/Mul_output_0:
        qtype: asymmetric_quantized
        qmethod: layer
        dtype: int8
        min:
        -   -0.27846458554267883
        max:
        -   10.94890022277832
        scale:
        -   0.04402888160125882
        zero_point:
        -   -122
        ori_min:
        -   -0.27846458554267883
        ori_max:
        -   10.94890022277832
    /model.4/Split_output_0:
        qtype: asymmetric_quantized
        qmethod: layer
        dtype: int8
        min:
        -   -0.27846458554267883
        max:
        -   10.94890022277832
        scale:
        -   0.04402888160125882
        zero_point:
        -   -122
        ori_min:
        -   -0.27846458554267883
        ori_max:
        -   10.94890022277832
    /model.4/Split_output_1:
        qtype: asymmetric_quantized
        qmethod: layer
        dtype: int8
        min:
        -   -0.27846458554267883
        max:
        -   6.402313232421875
        scale:
        -   0.026199128697900212
        zero_point:
        -   -117
        ori_min:
        -   -0.27846458554267883
        ori_max:
        -   6.402313232421875
    /model.4/m.0/cv1/conv/Conv_output_0:
        qtype: asymmetric_quantized
        qmethod: layer
        dtype: int8
        min:
        -   -10.071065902709961
        max:
        -   7.737339496612549
        scale:
        -   0.0698368839189118
        zero_point:
        -   16
        ori_min:
        -   -10.071065902709961
        ori_max:
        -   7.737339496612549
    /model.4/m.0/cv1/act/Mul_output_0:
        qtype: asymmetric_quantized
        qmethod: layer
        dtype: int8
        min:
        -   -0.27846458554267883
        max:
        -   7.733965873718262
        scale:
        -   0.03142129591867036
        zero_point:
        -   -119
        ori_min:
        -   -0.27846458554267883
        ori_max:
        -   7.733965873718262
    /model.4/m.0/cv2/conv/Conv_output_0:
        qtype: asymmetric_quantized
        qmethod: layer
        dtype: int8
        min:
        -   -10.543190002441406
        max:
        -   8.472258567810059
        scale:
        -   0.07457038655000574
        zero_point:
        -   13
        ori_min:
        -   -10.543190002441406
        ori_max:
        -   8.472258567810059
    /model.4/m.0/cv2/act/Mul_output_0:
        qtype: asymmetric_quantized
        qmethod: layer
        dtype: int8
        min:
        -   -0.27846458554267883
        max:
        -   8.470486640930176
        scale:
        -   0.03430961265283473
        zero_point:
        -   -120
        ori_min:
        -   -0.27846458554267883
        ori_max:
        -   8.470486640930176
    /model.4/m.0/Add_output_0:
        qtype: asymmetric_quantized
        qmethod: layer
        dtype: int8
        min:
        -   -0.5569291114807129
        max:
        -   9.588353157043457
        scale:
        -   0.039785420660879096
        zero_point:
        -   -114
        ori_min:
        -   -0.5569291114807129
        ori_max:
        -   9.588353157043457
    /model.4/m.1/cv1/conv/Conv_output_0:
        qtype: asymmetric_quantized
        qmethod: layer
        dtype: int8
        min:
        -   -11.6485595703125
        max:
        -   7.669502258300781
        scale:
        -   0.07575710521024816
        zero_point:
        -   26
        ori_min:
        -   -11.6485595703125
        ori_max:
        -   7.669502258300781
    /model.4/m.1/cv1/act/Mul_output_0:
        qtype: asymmetric_quantized
        qmethod: layer
        dtype: int8
        min:
        -   -0.27846458554267883
        max:
        -   7.665923595428467
        scale:
        -   0.031154463454788808
        zero_point:
        -   -119
        ori_min:
        -   -0.27846458554267883
        ori_max:
        -   7.665923595428467
    /model.4/m.1/cv2/conv/Conv_output_0:
        qtype: asymmetric_quantized
        qmethod: layer
        dtype: int8
        min:
        -   -16.71636962890625
        max:
        -   13.065225601196289
        scale:
        -   0.11679056952981388
        zero_point:
        -   15
        ori_min:
        -   -16.71636962890625
        ori_max:
        -   13.065225601196289
    /model.4/m.1/cv2/act/Mul_output_0:
        qtype: asymmetric_quantized
        qmethod: layer
        dtype: int8
        min:
        -   -0.27846458554267883
        max:
        -   13.065197944641113
        scale:
        -   0.05232808835366193
        zero_point:
        -   -123
        ori_min:
        -   -0.27846458554267883
        ori_max:
        -   13.065197944641113
    /model.4/m.1/Add_output_0:
        qtype: asymmetric_quantized
        qmethod: layer
        dtype: int8
        min:
        -   -0.8353927731513977
        max:
        -   16.733856201171875
        scale:
        -   0.06889901558558147
        zero_point:
        -   -116
        ori_min:
        -   -0.8353927731513977
        ori_max:
        -   16.733856201171875
    /model.4/Concat_output_0:
        qtype: asymmetric_quantized
        qmethod: layer
        dtype: int8
        min:
        -   -0.8353927731513977
        max:
        -   16.733856201171875
        scale:
        -   0.06889901558558147
        zero_point:
        -   -116
        ori_min:
        -   -0.8353927731513977
        ori_max:
        -   16.733856201171875
    /model.4/cv2/conv/Conv_output_0:
        qtype: asymmetric_quantized
        qmethod: layer
        dtype: int8
        min:
        -   -10.89494514465332
        max:
        -   8.048805236816406
        scale:
        -   0.07428921718223422
        zero_point:
        -   19
        ori_min:
        -   -10.89494514465332
        ori_max:
        -   8.048805236816406
    /model.4/cv2/act/Mul_output_0:
        qtype: asymmetric_quantized
        qmethod: layer
        dtype: int8
        min:
        -   -0.27846458554267883
        max:
        -   8.046235084533691
        scale:
        -   0.03264588105912302
        zero_point:
        -   -119
        ori_min:
        -   -0.27846458554267883
        ori_max:
        -   8.046235084533691
    /model.5/conv/Conv_output_0:
        qtype: asymmetric_quantized
        qmethod: layer
        dtype: int8
        min:
        -   -12.128941535949707
        max:
        -   10.665038108825684
        scale:
        -   0.08938815546970741
        zero_point:
        -   8
        ori_min:
        -   -12.128941535949707
        ori_max:
        -   10.665038108825684
    /model.5/act/Mul_output_0:
        qtype: asymmetric_quantized
        qmethod: layer
        dtype: int8
        min:
        -   -0.27846458554267883
        max:
        -   10.664789199829102
        scale:
        -   0.04291472072694816
        zero_point:
        -   -122
        ori_min:
        -   -0.27846458554267883
        ori_max:
        -   10.664789199829102
    /model.6/cv1/conv/Conv_output_0:
        qtype: asymmetric_quantized
        qmethod: layer
        dtype: int8
        min:
        -   -18.723220825195312
        max:
        -   12.617201805114746
        scale:
        -   0.12290361815807867
        zero_point:
        -   24
        ori_min:
        -   -18.723220825195312
        ori_max:
        -   12.617201805114746
    /model.6/cv1/act/Mul_output_0:
        qtype: asymmetric_quantized
        qmethod: layer
        dtype: int8
        min:
        -   -0.27846458554267883
        max:
        -   12.617159843444824
        scale:
        -   0.05057107619210786
        zero_point:
        -   -122
        ori_min:
        -   -0.27846458554267883
        ori_max:
        -   12.617159843444824
    /model.6/Split_output_0:
        qtype: asymmetric_quantized
        qmethod: layer
        dtype: int8
        min:
        -   -0.27846458554267883
        max:
        -   12.617159843444824
        scale:
        -   0.05057107619210786
        zero_point:
        -   -122
        ori_min:
        -   -0.27846458554267883
        ori_max:
        -   12.617159843444824
    /model.6/Split_output_1:
        qtype: asymmetric_quantized
        qmethod: layer
        dtype: int8
        min:
        -   -0.27846458554267883
        max:
        -   8.121888160705566
        scale:
        -   0.032942559789208806
        zero_point:
        -   -120
        ori_min:
        -   -0.27846458554267883
        ori_max:
        -   8.121888160705566
    /model.6/m.0/cv1/conv/Conv_output_0:
        qtype: asymmetric_quantized
        qmethod: layer
        dtype: int8
        min:
        -   -13.721536636352539
        max:
        -   11.19822883605957
        scale:
        -   0.09772457048004748
        zero_point:
        -   12
        ori_min:
        -   -13.721536636352539
        ori_max:
        -   11.19822883605957
    /model.6/m.0/cv1/act/Mul_output_0:
        qtype: asymmetric_quantized
        qmethod: layer
        dtype: int8
        min:
        -   -0.27846458554267883
        max:
        -   11.198075294494629
        scale:
        -   0.045006038745244344
        zero_point:
        -   -122
        ori_min:
        -   -0.27846458554267883
        ori_max:
        -   11.198075294494629
    /model.6/m.0/cv2/conv/Conv_output_0:
        qtype: asymmetric_quantized
        qmethod: layer
        dtype: int8
        min:
        -   -11.000152587890625
        max:
        -   8.58492660522461
        scale:
        -   0.07680423212986366
        zero_point:
        -   15
        ori_min:
        -   -11.000152587890625
        ori_max:
        -   8.58492660522461
    /model.6/m.0/cv2/act/Mul_output_0:
        qtype: asymmetric_quantized
        qmethod: layer
        dtype: int8
        min:
        -   -0.27846458554267883
        max:
        -   8.583322525024414
        scale:
        -   0.03475210631594938
        zero_point:
        -   -120
        ori_min:
        -   -0.27846458554267883
        ori_max:
        -   8.583322525024414
    /model.6/m.0/Add_output_0:
        qtype: asymmetric_quantized
        qmethod: layer
        dtype: int8
        min:
        -   -0.5569291114807129
        max:
        -   10.05051040649414
        scale:
        -   0.04159780203127394
        zero_point:
        -   -115
        ori_min:
        -   -0.5569291114807129
        ori_max:
        -   10.05051040649414
    /model.6/m.1/cv1/conv/Conv_output_0:
        qtype: asymmetric_quantized
        qmethod: layer
        dtype: int8
        min:
        -   -11.23564338684082
        max:
        -   8.742074966430664
        scale:
        -   0.07834399354224111
        zero_point:
        -   15
        ori_min:
        -   -11.23564338684082
        ori_max:
        -   8.742074966430664
    /model.6/m.1/cv1/act/Mul_output_0:
        qtype: asymmetric_quantized
        qmethod: layer
        dtype: int8
        min:
        -   -0.27846458554267883
        max:
        -   8.740678787231445
        scale:
        -   0.03536918969715343
        zero_point:
        -   -120
        ori_min:
        -   -0.27846458554267883
        ori_max:
        -   8.740678787231445
    /model.6/m.1/cv2/conv/Conv_output_0:
        qtype: asymmetric_quantized
        qmethod: layer
        dtype: int8
        min:
        -   -18.50099754333496
        max:
        -   15.532073020935059
        scale:
        -   0.13346302182066674
        zero_point:
        -   11
        ori_min:
        -   -18.50099754333496
        ori_max:
        -   15.532073020935059
    /model.6/m.1/cv2/act/Mul_output_0:
        qtype: asymmetric_quantized
        qmethod: layer
        dtype: int8
        min:
        -   -0.27846458554267883
        max:
        -   15.532069206237793
        scale:
        -   0.06200209330109989
        zero_point:
        -   -124
        ori_min:
        -   -0.27846458554267883
        ori_max:
        -   15.532069206237793
    /model.6/m.1/Add_output_0:
        qtype: asymmetric_quantized
        qmethod: layer
        dtype: int8
        min:
        -   -0.8353900909423828
        max:
        -   16.23804473876953
        scale:
        -   0.06695464639102712
        zero_point:
        -   -116
        ori_min:
        -   -0.8353900909423828
        ori_max:
        -   16.23804473876953
    /model.6/Concat_output_0:
        qtype: asymmetric_quantized
        qmethod: layer
        dtype: int8
        min:
        -   -0.8353900909423828
        max:
        -   16.23804473876953
        scale:
        -   0.06695464639102712
        zero_point:
        -   -116
        ori_min:
        -   -0.8353900909423828
        ori_max:
        -   16.23804473876953
    /model.6/cv2/conv/Conv_output_0:
        qtype: asymmetric_quantized
        qmethod: layer
        dtype: int8
        min:
        -   -11.606334686279297
        max:
        -   12.740949630737305
        scale:
        -   0.09547954634124158
        zero_point:
        -   -6
        ori_min:
        -   -11.606334686279297
        ori_max:
        -   12.740949630737305
    /model.6/cv2/act/Mul_output_0:
        qtype: asymmetric_quantized
        qmethod: layer
        dtype: int8
        min:
        -   -0.27846458554267883
        max:
        -   12.740911483764648
        scale:
        -   0.05105637674238168
        zero_point:
        -   -123
        ori_min:
        -   -0.27846458554267883
        ori_max:
        -   12.740911483764648
    /model.7/conv/Conv_output_0:
        qtype: asymmetric_quantized
        qmethod: layer
        dtype: int8
        min:
        -   -14.913785934448242
        max:
        -   10.127613067626953
        scale:
        -   0.09820156471402038
        zero_point:
        -   24
        ori_min:
        -   -14.913785934448242
        ori_max:
        -   10.127613067626953
    /model.7/act/Mul_output_0:
        qtype: asymmetric_quantized
        qmethod: layer
        dtype: int8
        min:
        -   -0.27846458554267883
        max:
        -   10.127208709716797
        scale:
        -   0.04080656194219402
        zero_point:
        -   -121
        ori_min:
        -   -0.27846458554267883
        ori_max:
        -   10.127208709716797
    /model.8/cv1/conv/Conv_output_0:
        qtype: asymmetric_quantized
        qmethod: layer
        dtype: int8
        min:
        -   -19.085830688476562
        max:
        -   18.189380645751953
        scale:
        -   0.14617729934991575
        zero_point:
        -   3
        ori_min:
        -   -19.085830688476562
        ori_max:
        -   18.189380645751953
    /model.8/cv1/act/Mul_output_0:
        qtype: asymmetric_quantized
        qmethod: layer
        dtype: int8
        min:
        -   -0.27846458554267883
        max:
        -   18.189380645751953
        scale:
        -   0.07242292247566523
        zero_point:
        -   -124
        ori_min:
        -   -0.27846458554267883
        ori_max:
        -   18.189380645751953
    /model.8/Split_output_0:
        qtype: asymmetric_quantized
        qmethod: layer
        dtype: int8
        min:
        -   -0.27846458554267883
        max:
        -   18.189380645751953
        scale:
        -   0.07242292247566523
        zero_point:
        -   -124
        ori_min:
        -   -0.27846458554267883
        ori_max:
        -   18.189380645751953
    /model.8/Split_output_1:
        qtype: asymmetric_quantized
        qmethod: layer
        dtype: int8
        min:
        -   -0.27846458554267883
        max:
        -   10.665848731994629
        scale:
        -   0.04291887575504826
        zero_point:
        -   -122
        ori_min:
        -   -0.27846458554267883
        ori_max:
        -   10.665848731994629
    /model.8/m.0/cv1/conv/Conv_output_0:
        qtype: asymmetric_quantized
        qmethod: layer
        dtype: int8
        min:
        -   -12.76325798034668
        max:
        -   12.204812049865723
        scale:
        -   0.09791400011848
        zero_point:
        -   2
        ori_min:
        -   -12.76325798034668
        ori_max:
        -   12.204812049865723
    /model.8/m.0/cv1/act/Mul_output_0:
        qtype: asymmetric_quantized
        qmethod: layer
        dtype: int8
        min:
        -   -0.27846458554267883
        max:
        -   12.204751014709473
        scale:
        -   0.0489537866676555
        zero_point:
        -   -122
        ori_min:
        -   -0.27846458554267883
        ori_max:
        -   12.204751014709473
    /model.8/m.0/cv2/conv/Conv_output_0:
        qtype: asymmetric_quantized
        qmethod: layer
        dtype: int8
        min:
        -   -22.259103775024414
        max:
        -   23.06663703918457
        scale:
        -   0.1777480031929764
        zero_point:
        -   -3
        ori_min:
        -   -22.259103775024414
        ori_max:
        -   23.06663703918457
    /model.8/m.0/cv2/act/Mul_output_0:
        qtype: asymmetric_quantized
        qmethod: layer
        dtype: int8
        min:
        -   -0.27846458554267883
        max:
        -   23.06663703918457
        scale:
        -   0.09154941813618529
        zero_point:
        -   -125
        ori_min:
        -   -0.27846458554267883
        ori_max:
        -   23.06663703918457
    /model.8/m.0/Add_output_0:
        qtype: asymmetric_quantized
        qmethod: layer
        dtype: int8
        min:
        -   -0.5569291114807129
        max:
        -   22.898643493652344
        scale:
        -   0.09198263766718846
        zero_point:
        -   -122
        ori_min:
        -   -0.5569291114807129
        ori_max:
        -   22.898643493652344
    /model.8/Concat_output_0:
        qtype: asymmetric_quantized
        qmethod: layer
        dtype: int8
        min:
        -   -0.5569291114807129
        max:
        -   22.898643493652344
        scale:
        -   0.09198263766718846
        zero_point:
        -   -122
        ori_min:
        -   -0.5569291114807129
        ori_max:
        -   22.898643493652344
    /model.8/cv2/conv/Conv_output_0:
        qtype: asymmetric_quantized
        qmethod: layer
        dtype: int8
        min:
        -   -16.966476440429688
        max:
        -   10.141622543334961
        scale:
        -   0.10630627052456725
        zero_point:
        -   32
        ori_min:
        -   -16.966476440429688
        ori_max:
        -   10.141622543334961
    /model.8/cv2/act/Mul_output_0:
        qtype: asymmetric_quantized
        qmethod: layer
        dtype: int8
        min:
        -   -0.27846458554267883
        max:
        -   10.14122200012207
        scale:
        -   0.0408615160222147
        zero_point:
        -   -121
        ori_min:
        -   -0.27846458554267883
        ori_max:
        -   10.14122200012207
    /model.9/cv1/conv/Conv_output_0:
        qtype: asymmetric_quantized
        qmethod: layer
        dtype: int8
        min:
        -   -6.988214492797852
        max:
        -   9.574857711791992
        scale:
        -   0.06495322433172487
        zero_point:
        -   -20
        ori_min:
        -   -6.988214492797852
        ori_max:
        -   9.574857711791992
    /model.9/cv1/act/Mul_output_0:
        qtype: asymmetric_quantized
        qmethod: layer
        dtype: int8
        min:
        -   -0.27846455574035645
        max:
        -   9.57419204711914
        scale:
        -   0.03863786903082156
        zero_point:
        -   -121
        ori_min:
        -   -0.27846455574035645
        ori_max:
        -   9.57419204711914
    /model.9/m/MaxPool_output_0:
        qtype: asymmetric_quantized
        qmethod: layer
        dtype: int8
        min:
        -   -0.27846455574035645
        max:
        -   9.57419204711914
        scale:
        -   0.03863786903082156
        zero_point:
        -   -121
        ori_min:
        -   -0.27404317259788513
        ori_max:
        -   9.57419204711914
    /model.9/m_1/MaxPool_output_0:
        qtype: asymmetric_quantized
        qmethod: layer
        dtype: int8
        min:
        -   -0.27846455574035645
        max:
        -   9.57419204711914
        scale:
        -   0.03863786903082156
        zero_point:
        -   -121
        ori_min:
        -   -0.25828471779823303
        ori_max:
        -   9.57419204711914
    /model.9/m_2/MaxPool_output_0:
        qtype: asymmetric_quantized
        qmethod: layer
        dtype: int8
        min:
        -   -0.27846455574035645
        max:
        -   9.57419204711914
        scale:
        -   0.03863786903082156
        zero_point:
        -   -121
        ori_min:
        -   -0.23272095620632172
        ori_max:
        -   9.57419204711914
    /model.9/Concat_output_0:
        qtype: asymmetric_quantized
        qmethod: layer
        dtype: int8
        min:
        -   -0.27846455574035645
        max:
        -   9.57419204711914
        scale:
        -   0.03863786903082156
        zero_point:
        -   -121
        ori_min:
        -   -0.27846455574035645
        ori_max:
        -   9.57419204711914
    /model.9/cv2/conv/Conv_output_0:
        qtype: asymmetric_quantized
        qmethod: layer
        dtype: int8
        min:
        -   -11.282503128051758
        max:
        -   8.985435485839844
        scale:
        -   0.07948211221133962
        zero_point:
        -   14
        ori_min:
        -   -11.282503128051758
        ori_max:
        -   8.985435485839844
    /model.9/cv2/act/Mul_output_0:
        qtype: asymmetric_quantized
        qmethod: layer
        dtype: int8
        min:
        -   -0.27846458554267883
        max:
        -   8.9843111038208
        scale:
        -   0.03632461054652345
        zero_point:
        -   -120
        ori_min:
        -   -0.27846458554267883
        ori_max:
        -   8.9843111038208
    /model.10/Resize_output_0:
        qtype: asymmetric_quantized
        qmethod: layer
        dtype: int8
        min:
        -   -0.27846458554267883
        max:
        -   8.9843111038208
        scale:
        -   0.03632461054652345
        zero_point:
        -   -120
        ori_min:
        -   -0.27846458554267883
        ori_max:
        -   8.9843111038208
    /model.11/Concat_output_0:
        qtype: asymmetric_quantized
        qmethod: layer
        dtype: int8
        min:
        -   -0.27846458554267883
        max:
        -   12.740911483764648
        scale:
        -   0.05105637674238168
        zero_point:
        -   -123
        ori_min:
        -   -0.27846458554267883
        ori_max:
        -   12.740911483764648
    /model.12/cv1/conv/Conv_output_0:
        qtype: asymmetric_quantized
        qmethod: layer
        dtype: int8
        min:
        -   -12.006510734558105
        max:
        -   12.585970878601074
        scale:
        -   0.09644110436533011
        zero_point:
        -   -4
        ori_min:
        -   -12.006510734558105
        ori_max:
        -   12.585970878601074
    /model.12/cv1/act/Mul_output_0:
        qtype: asymmetric_quantized
        qmethod: layer
        dtype: int8
        min:
        -   -0.27846458554267883
        max:
        -   12.58592700958252
        scale:
        -   0.05044859449068705
        zero_point:
        -   -122
        ori_min:
        -   -0.27846458554267883
        ori_max:
        -   12.58592700958252
    /model.12/Split_output_0:
        qtype: asymmetric_quantized
        qmethod: layer
        dtype: int8
        min:
        -   -0.27846458554267883
        max:
        -   12.58592700958252
        scale:
        -   0.05044859449068705
        zero_point:
        -   -122
        ori_min:
        -   -0.27846458554267883
        ori_max:
        -   12.58592700958252
    /model.12/Split_output_1:
        qtype: asymmetric_quantized
        qmethod: layer
        dtype: int8
        min:
        -   -0.27846458554267883
        max:
        -   7.934091567993164
        scale:
        -   0.032206102562885655
        zero_point:
        -   -119
        ori_min:
        -   -0.27846458554267883
        ori_max:
        -   7.934091567993164
    /model.12/m.0/cv1/conv/Conv_output_0:
        qtype: asymmetric_quantized
        qmethod: layer
        dtype: int8
        min:
        -   -10.0447416305542
        max:
        -   7.307465553283691
        scale:
        -   0.0680478713091682
        zero_point:
        -   20
        ori_min:
        -   -10.0447416305542
        ori_max:
        -   7.307465553283691
    /model.12/m.0/cv1/act/Mul_output_0:
        qtype: asymmetric_quantized
        qmethod: layer
        dtype: int8
        min:
        -   -0.27846458554267883
        max:
        -   7.3025689125061035
        scale:
        -   0.02972954312960307
        zero_point:
        -   -119
        ori_min:
        -   -0.27846458554267883
        ori_max:
        -   7.3025689125061035
    /model.12/m.0/cv2/conv/Conv_output_0:
        qtype: asymmetric_quantized
        qmethod: layer
        dtype: int8
        min:
        -   -10.75986099243164
        max:
        -   11.399374008178711
        scale:
        -   0.08689896078670727
        zero_point:
        -   -4
        ori_min:
        -   -10.75986099243164
        ori_max:
        -   11.399374008178711
    /model.12/m.0/cv2/act/Mul_output_0:
        qtype: asymmetric_quantized
        qmethod: layer
        dtype: int8
        min:
        -   -0.27846458554267883
        max:
        -   11.399246215820312
        scale:
        -   0.04579494431907055
        zero_point:
        -   -122
        ori_min:
        -   -0.27846458554267883
        ori_max:
        -   11.399246215820312
    /model.12/Concat_output_0:
        qtype: asymmetric_quantized
        qmethod: layer
        dtype: int8
        min:
        -   -0.27846458554267883
        max:
        -   12.58592700958252
        scale:
        -   0.05044859449068705
        zero_point:
        -   -122
        ori_min:
        -   -0.27846458554267883
        ori_max:
        -   12.58592700958252
    /model.12/cv2/conv/Conv_output_0:
        qtype: asymmetric_quantized
        qmethod: layer
        dtype: int8
        min:
        -   -14.018885612487793
        max:
        -   9.531271934509277
        scale:
        -   0.09235355900783165
        zero_point:
        -   24
        ori_min:
        -   -14.018885612487793
        ori_max:
        -   9.531271934509277
    /model.12/cv2/act/Mul_output_0:
        qtype: asymmetric_quantized
        qmethod: layer
        dtype: int8
        min:
        -   -0.27846458554267883
        max:
        -   9.530579566955566
        scale:
        -   0.03846683981371861
        zero_point:
        -   -121
        ori_min:
        -   -0.27846458554267883
        ori_max:
        -   9.530579566955566
    /model.13/Resize_output_0:
        qtype: asymmetric_quantized
        qmethod: layer
        dtype: int8
        min:
        -   -0.27846458554267883
        max:
        -   9.530579566955566
        scale:
        -   0.03846683981371861
        zero_point:
        -   -121
        ori_min:
        -   -0.27846458554267883
        ori_max:
        -   9.530579566955566
    /model.14/Concat_output_0:
        qtype: asymmetric_quantized
        qmethod: layer
        dtype: int8
        min:
        -   -0.27846458554267883
        max:
        -   9.530579566955566
        scale:
        -   0.03846683981371861
        zero_point:
        -   -121
        ori_min:
        -   -0.27846458554267883
        ori_max:
        -   9.530579566955566
    /model.15/cv1/conv/Conv_output_0:
        qtype: asymmetric_quantized
        qmethod: layer
        dtype: int8
        min:
        -   -9.652661323547363
        max:
        -   5.8836846351623535
        scale:
        -   0.06092684689690085
        zero_point:
        -   30
        ori_min:
        -   -9.652661323547363
        ori_max:
        -   5.8836846351623535
    /model.15/cv1/act/Mul_output_0:
        qtype: asymmetric_quantized
        qmethod: layer
        dtype: int8
        min:
        -   -0.27846458554267883
        max:
        -   5.867347240447998
        scale:
        -   0.024101222847022263
        zero_point:
        -   -116
        ori_min:
        -   -0.27846458554267883
        ori_max:
        -   5.867347240447998
    /model.15/Split_output_0:
        qtype: asymmetric_quantized
        qmethod: layer
        dtype: int8
        min:
        -   -0.27846458554267883
        max:
        -   5.867347240447998
        scale:
        -   0.024101222847022263
        zero_point:
        -   -116
        ori_min:
        -   -0.27846458554267883
        ori_max:
        -   5.867347240447998
    /model.15/Split_output_1:
        qtype: asymmetric_quantized
        qmethod: layer
        dtype: int8
        min:
        -   -0.27846458554267883
        max:
        -   5.7244391441345215
        scale:
        -   0.02354079893991059
        zero_point:
        -   -116
        ori_min:
        -   -0.27846458554267883
        ori_max:
        -   5.7244391441345215
    /model.15/m.0/cv1/conv/Conv_output_0:
        qtype: asymmetric_quantized
        qmethod: layer
        dtype: int8
        min:
        -   -7.555691719055176
        max:
        -   5.8330841064453125
        scale:
        -   0.05250500323725682
        zero_point:
        -   16
        ori_min:
        -   -7.555691719055176
        ori_max:
        -   5.8330841064453125
    /model.15/m.0/cv1/act/Mul_output_0:
        qtype: asymmetric_quantized
        qmethod: layer
        dtype: int8
        min:
        -   -0.27846458554267883
        max:
        -   5.816049098968506
        scale:
        -   0.023900053664749742
        zero_point:
        -   -116
        ori_min:
        -   -0.27846458554267883
        ori_max:
        -   5.816049098968506
    /model.15/m.0/cv2/conv/Conv_output_0:
        qtype: asymmetric_quantized
        qmethod: layer
        dtype: int8
        min:
        -   -11.242424011230469
        max:
        -   9.293684005737305
        scale:
        -   0.08053375692928538
        zero_point:
        -   12
        ori_min:
        -   -11.242424011230469
        ori_max:
        -   9.293684005737305
    /model.15/m.0/cv2/act/Mul_output_0:
        qtype: asymmetric_quantized
        qmethod: layer
        dtype: int8
        min:
        -   -0.27846458554267883
        max:
        -   9.292828559875488
        scale:
        -   0.0375344829232085
        zero_point:
        -   -121
        ori_min:
        -   -0.27846458554267883
        ori_max:
        -   9.292828559875488
    /model.15/Concat_output_0:
        qtype: asymmetric_quantized
        qmethod: layer
        dtype: int8
        min:
        -   -0.27846458554267883
        max:
        -   9.292828559875488
        scale:
        -   0.0375344829232085
        zero_point:
        -   -121
        ori_min:
        -   -0.27846458554267883
        ori_max:
        -   9.292828559875488
    /model.15/cv2/conv/Conv_output_0:
        qtype: asymmetric_quantized
        qmethod: layer
        dtype: int8
        min:
        -   -13.11922836303711
        max:
        -   7.345229148864746
        scale:
        -   0.08025277455647786
        zero_point:
        -   35
        ori_min:
        -   -13.11922836303711
        ori_max:
        -   7.345229148864746
    /model.15/cv2/act/Mul_output_0:
        qtype: asymmetric_quantized
        qmethod: layer
        dtype: int8
        min:
        -   -0.27846458554267883
        max:
        -   7.340489864349365
        scale:
        -   0.029878252744674684
        zero_point:
        -   -119
        ori_min:
        -   -0.27846458554267883
        ori_max:
        -   7.340489864349365
    /model.16/conv/Conv_output_0:
        qtype: asymmetric_quantized
        qmethod: layer
        dtype: int8
        min:
        -   -13.778532028198242
        max:
        -   10.834795951843262
        scale:
        -   0.09652285482369218
        zero_point:
        -   15
        ori_min:
        -   -13.778532028198242
        ori_max:
        -   10.834795951843262
    /model.16/act/Mul_output_0:
        qtype: asymmetric_quantized
        qmethod: layer
        dtype: int8
        min:
        -   -0.27846458554267883
        max:
        -   10.834583282470703
        scale:
        -   0.043580579874562285
        zero_point:
        -   -122
        ori_min:
        -   -0.27846458554267883
        ori_max:
        -   10.834583282470703
    /model.17/Concat_output_0:
        qtype: asymmetric_quantized
        qmethod: layer
        dtype: int8
        min:
        -   -0.27846458554267883
        max:
        -   10.834583282470703
        scale:
        -   0.043580579874562285
        zero_point:
        -   -122
        ori_min:
        -   -0.27846458554267883
        ori_max:
        -   10.834583282470703
    /model.18/cv1/conv/Conv_output_0:
        qtype: asymmetric_quantized
        qmethod: layer
        dtype: int8
        min:
        -   -14.540884971618652
        max:
        -   10.438735961914062
        scale:
        -   0.09795929777855966
        zero_point:
        -   20
        ori_min:
        -   -14.540884971618652
        ori_max:
        -   10.438735961914062
    /model.18/cv1/act/Mul_output_0:
        qtype: asymmetric_quantized
        qmethod: layer
        dtype: int8
        min:
        -   -0.27846458554267883
        max:
        -   10.438429832458496
        scale:
        -   0.04202703693333794
        zero_point:
        -   -121
        ori_min:
        -   -0.27846458554267883
        ori_max:
        -   10.438429832458496
    /model.18/Split_output_0:
        qtype: asymmetric_quantized
        qmethod: layer
        dtype: int8
        min:
        -   -0.27846458554267883
        max:
        -   10.36320686340332
        scale:
        -   0.04173204489782745
        zero_point:
        -   -121
        ori_min:
        -   -0.27846458554267883
        ori_max:
        -   10.36320686340332
    /model.18/Split_output_1:
        qtype: asymmetric_quantized
        qmethod: layer
        dtype: int8
        min:
        -   -0.27846458554267883
        max:
        -   10.438429832458496
        scale:
        -   0.04202703693333794
        zero_point:
        -   -121
        ori_min:
        -   -0.27846458554267883
        ori_max:
        -   10.438429832458496
    /model.18/m.0/cv1/conv/Conv_output_0:
        qtype: asymmetric_quantized
        qmethod: layer
        dtype: int8
        min:
        -   -12.836920738220215
        max:
        -   7.777450084686279
        scale:
        -   0.08084066989375095
        zero_point:
        -   31
        ori_min:
        -   -12.836920738220215
        ori_max:
        -   7.777450084686279
    /model.18/m.0/cv1/act/Mul_output_0:
        qtype: asymmetric_quantized
        qmethod: layer
        dtype: int8
        min:
        -   -0.27846458554267883
        max:
        -   7.7741923332214355
        scale:
        -   0.03157904674025143
        zero_point:
        -   -119
        ori_min:
        -   -0.27846458554267883
        ori_max:
        -   7.7741923332214355
    /model.18/m.0/cv2/conv/Conv_output_0:
        qtype: asymmetric_quantized
        qmethod: layer
        dtype: int8
        min:
        -   -19.949003219604492
        max:
        -   18.197961807250977
        scale:
        -   0.14959594128178616
        zero_point:
        -   5
        ori_min:
        -   -19.949003219604492
        ori_max:
        -   18.197961807250977
    /model.18/m.0/cv2/act/Mul_output_0:
        qtype: asymmetric_quantized
        qmethod: layer
        dtype: int8
        min:
        -   -0.27846458554267883
        max:
        -   18.197961807250977
        scale:
        -   0.07245657408938688
        zero_point:
        -   -124
        ori_min:
        -   -0.27846458554267883
        ori_max:
        -   18.197961807250977
    /model.18/Concat_output_0:
        qtype: asymmetric_quantized
        qmethod: layer
        dtype: int8
        min:
        -   -0.27846458554267883
        max:
        -   18.197961807250977
        scale:
        -   0.07245657408938688
        zero_point:
        -   -124
        ori_min:
        -   -0.27846458554267883
        ori_max:
        -   18.197961807250977
    /model.18/cv2/conv/Conv_output_0:
        qtype: asymmetric_quantized
        qmethod: layer
        dtype: int8
        min:
        -   -26.846471786499023
        max:
        -   12.379966735839844
        scale:
        -   0.1538291706758387
        zero_point:
        -   47
        ori_min:
        -   -26.846471786499023
        ori_max:
        -   12.379966735839844
    /model.18/cv2/act/Mul_output_0:
        qtype: asymmetric_quantized
        qmethod: layer
        dtype: int8
        min:
        -   -0.27846458554267883
        max:
        -   12.379915237426758
        scale:
        -   0.04964070518811544
        zero_point:
        -   -122
        ori_min:
        -   -0.27846458554267883
        ori_max:
        -   12.379915237426758
    /model.19/conv/Conv_output_0:
        qtype: asymmetric_quantized
        qmethod: layer
        dtype: int8
        min:
        -   -14.305770874023438
        max:
        -   13.78176498413086
        scale:
        -   0.11014719944374234
        zero_point:
        -   2
        ori_min:
        -   -14.305770874023438
        ori_max:
        -   13.78176498413086
    /model.19/act/Mul_output_0:
        qtype: asymmetric_quantized
        qmethod: layer
        dtype: int8
        min:
        -   -0.27846458554267883
        max:
        -   13.781749725341797
        scale:
        -   0.05513809533680186
        zero_point:
        -   -123
        ori_min:
        -   -0.27846458554267883
        ori_max:
        -   13.781749725341797
    /model.20/Concat_output_0:
        qtype: asymmetric_quantized
        qmethod: layer
        dtype: int8
        min:
        -   -0.27846458554267883
        max:
        -   13.781749725341797
        scale:
        -   0.05513809533680186
        zero_point:
        -   -123
        ori_min:
        -   -0.27846458554267883
        ori_max:
        -   13.781749725341797
    /model.21/cv1/conv/Conv_output_0:
        qtype: asymmetric_quantized
        qmethod: layer
        dtype: int8
        min:
        -   -19.093494415283203
        max:
        -   13.195867538452148
        scale:
        -   0.12662494883817785
        zero_point:
        -   23
        ori_min:
        -   -19.093494415283203
        ori_max:
        -   13.195867538452148
    /model.21/cv1/act/Mul_output_0:
        qtype: asymmetric_quantized
        qmethod: layer
        dtype: int8
        min:
        -   -0.27846458554267883
        max:
        -   13.195842742919922
        scale:
        -   0.052840420895931765
        zero_point:
        -   -123
        ori_min:
        -   -0.27846458554267883
        ori_max:
        -   13.195842742919922
    /model.21/Split_output_0:
        qtype: asymmetric_quantized
        qmethod: layer
        dtype: int8
        min:
        -   -0.27846458554267883
        max:
        -   13.08800220489502
        scale:
        -   0.052417516825245876
        zero_point:
        -   -123
        ori_min:
        -   -0.27846458554267883
        ori_max:
        -   13.08800220489502
    /model.21/Split_output_1:
        qtype: asymmetric_quantized
        qmethod: layer
        dtype: int8
        min:
        -   -0.27846458554267883
        max:
        -   13.195842742919922
        scale:
        -   0.052840420895931765
        zero_point:
        -   -123
        ori_min:
        -   -0.27846458554267883
        ori_max:
        -   13.195842742919922
    /model.21/m.0/cv1/conv/Conv_output_0:
        qtype: asymmetric_quantized
        qmethod: layer
        dtype: int8
        min:
        -   -15.518943786621094
        max:
        -   9.306991577148438
        scale:
        -   0.09735660926968444
        zero_point:
        -   31
        ori_min:
        -   -15.518943786621094
        ori_max:
        -   9.306991577148438
    /model.21/m.0/cv1/act/Mul_output_0:
        qtype: asymmetric_quantized
        qmethod: layer
        dtype: int8
        min:
        -   -0.27846458554267883
        max:
        -   9.306146621704102
        scale:
        -   0.03758671061665404
        zero_point:
        -   -121
        ori_min:
        -   -0.27846458554267883
        ori_max:
        -   9.306146621704102
    /model.21/m.0/cv2/conv/Conv_output_0:
        qtype: asymmetric_quantized
        qmethod: layer
        dtype: int8
        min:
        -   -15.113886833190918
        max:
        -   18.43536376953125
        scale:
        -   0.13156568863812615
        zero_point:
        -   -13
        ori_min:
        -   -15.113886833190918
        ori_max:
        -   18.43536376953125
    /model.21/m.0/cv2/act/Mul_output_0:
        qtype: asymmetric_quantized
        qmethod: layer
        dtype: int8
        min:
        -   -0.27846458554267883
        max:
        -   18.43536376953125
        scale:
        -   0.0733875621767605
        zero_point:
        -   -124
        ori_min:
        -   -0.27846458554267883
        ori_max:
        -   18.43536376953125
    /model.21/Concat_output_0:
        qtype: asymmetric_quantized
        qmethod: layer
        dtype: int8
        min:
        -   -0.27846458554267883
        max:
        -   18.43536376953125
        scale:
        -   0.0733875621767605
        zero_point:
        -   -124
        ori_min:
        -   -0.27846458554267883
        ori_max:
        -   18.43536376953125
    /model.21/cv2/conv/Conv_output_0:
        qtype: asymmetric_quantized
        qmethod: layer
        dtype: int8
        min:
        -   -24.866695404052734
        max:
        -   15.160951614379883
        scale:
        -   0.15697116477816714
        zero_point:
        -   30
        ori_min:
        -   -24.866695404052734
        ori_max:
        -   15.160951614379883
    /model.21/cv2/act/Mul_output_0:
        qtype: asymmetric_quantized
        qmethod: layer
        dtype: int8
        min:
        -   -0.27846458554267883
        max:
        -   15.160947799682617
        scale:
        -   0.060546715236177634
        zero_point:
        -   -123
        ori_min:
        -   -0.27846458554267883
        ori_max:
        -   15.160947799682617
    /model.22/cv2.2/cv2.2.0/conv/Conv_output_0:
        qtype: asymmetric_quantized
        qmethod: layer
        dtype: int8
        min:
        -   -15.689312934875488
        max:
        -   14.864900588989258
        scale:
        -   0.11982044519162645
        zero_point:
        -   3
        ori_min:
        -   -15.689312934875488
        ori_max:
        -   14.864900588989258
    /model.22/cv2.2/cv2.2.0/act/Mul_output_0:
        qtype: asymmetric_quantized
        qmethod: layer
        dtype: int8
        min:
        -   -0.27846458554267883
        max:
        -   14.86489486694336
        scale:
        -   0.0593857233430825
        zero_point:
        -   -123
        ori_min:
        -   -0.27846458554267883
        ori_max:
        -   14.86489486694336
    /model.22/cv2.2/cv2.2.1/conv/Conv_output_0:
        qtype: asymmetric_quantized
        qmethod: layer
        dtype: int8
        min:
        -   -33.20508575439453
        max:
        -   32.967960357666016
        scale:
        -   0.2595021416159237
        zero_point:
        -   0
        ori_min:
        -   -33.20508575439453
        ori_max:
        -   32.967960357666016
    /model.22/cv2.2/cv2.2.1/act/Mul_output_0:
        qtype: asymmetric_quantized
        qmethod: layer
        dtype: int8
        min:
        -   -0.27846458554267883
        max:
        -   32.967960357666016
        scale:
        -   0.13037813703219095
        zero_point:
        -   -126
        ori_min:
        -   -0.27846458554267883
        ori_max:
        -   32.967960357666016
    /model.22/cv2.2/cv2.2.2/Conv_output_0:
        qtype: asymmetric_quantized
        qmethod: layer
        dtype: int8
        min:
        -   -5.823579788208008
        max:
        -   13.131134986877441
        scale:
        -   0.07433221480425667
        zero_point:
        -   -50
        ori_min:
        -   -5.823579788208008
        ori_max:
        -   13.131134986877441
    /model.22/cv3.2/cv3.2.0/conv/Conv_output_0:
        qtype: asymmetric_quantized
        qmethod: layer
        dtype: int8
        min:
        -   -8.131209373474121
        max:
        -   12.68837833404541
        scale:
        -   0.08164544199027267
        zero_point:
        -   -28
        ori_min:
        -   -8.131209373474121
        ori_max:
        -   12.68837833404541
    /model.22/cv3.2/cv3.2.0/act/Mul_output_0:
        qtype: asymmetric_quantized
        qmethod: layer
        dtype: int8
        min:
        -   -0.27846458554267883
        max:
        -   12.688339233398438
        scale:
        -   0.050850211054671045
        zero_point:
        -   -123
        ori_min:
        -   -0.27846458554267883
        ori_max:
        -   12.688339233398438
    /model.22/cv3.2/cv3.2.1/conv/Conv_output_0:
        qtype: asymmetric_quantized
        qmethod: layer
        dtype: int8
        min:
        -   -13.26088809967041
        max:
        -   28.209192276000977
        scale:
        -   0.1626277661791035
        zero_point:
        -   -46
        ori_min:
        -   -13.26088809967041
        ori_max:
        -   28.209192276000977
    /model.22/cv3.2/cv3.2.1/act/Mul_output_0:
        qtype: asymmetric_quantized
        qmethod: layer
        dtype: int8
        min:
        -   -0.27846458554267883
        max:
        -   28.209192276000977
        scale:
        -   0.11171630141781826
        zero_point:
        -   -126
        ori_min:
        -   -0.27846458554267883
        ori_max:
        -   28.209192276000977
    /model.22/cv3.2/cv3.2.2/Conv_output_0:
        qtype: asymmetric_quantized
        qmethod: layer
        dtype: int8
        min:
        -   -21.653610229492188
        max:
        -   5.649462699890137
        scale:
        -   0.10707087423287186
        zero_point:
        -   74
        ori_min:
        -   -21.653610229492188
        ori_max:
        -   5.649462699890137
    /model.22/Concat_2_output_0:
        qtype: asymmetric_quantized
        qmethod: layer
        dtype: int8
        min:
        -   -21.653610229492188
        max:
        -   13.131134986877441
        scale:
        -   0.1364107655543907
        zero_point:
        -   31
        ori_min:
        -   -21.653610229492188
        ori_max:
        -   13.131134986877441
    /model.22/Reshape_2_output_0_shape4_/model.22/Concat_3:
        qtype: asymmetric_quantized
        qmethod: layer
        dtype: int8
        min:
        -   -21.653610229492188
        max:
        -   13.131134986877441
        scale:
        -   0.1364107655543907
        zero_point:
        -   31
        ori_min:
        -   -21.653610229492188
        ori_max:
        -   13.131134986877441
    /model.22/cv2.1/cv2.1.0/conv/Conv_output_0:
        qtype: asymmetric_quantized
        qmethod: layer
        dtype: int8
        min:
        -   -19.36956787109375
        max:
        -   26.846912384033203
        scale:
        -   0.18124109903971355
        zero_point:
        -   -21
        ori_min:
        -   -19.36956787109375
        ori_max:
        -   26.846912384033203
    /model.22/cv2.1/cv2.1.0/act/Mul_output_0:
        qtype: asymmetric_quantized
        qmethod: layer
        dtype: int8
        min:
        -   -0.27846458554267883
        max:
        -   26.846912384033203
        scale:
        -   0.10637402733167013
        zero_point:
        -   -125
        ori_min:
        -   -0.27846458554267883
        ori_max:
        -   26.846912384033203
    /model.22/cv2.1/cv2.1.1/conv/Conv_output_0:
        qtype: asymmetric_quantized
        qmethod: layer
        dtype: int8
        min:
        -   -60.87912368774414
        max:
        -   51.75940704345703
        scale:
        -   0.44171972835765166
        zero_point:
        -   10
        ori_min:
        -   -60.87912368774414
        ori_max:
        -   51.75940704345703
    /model.22/cv2.1/cv2.1.1/act/Mul_output_0:
        qtype: asymmetric_quantized
        qmethod: layer
        dtype: int8
        min:
        -   -0.27846458554267883
        max:
        -   51.75940704345703
        scale:
        -   0.2040700848196067
        zero_point:
        -   -127
        ori_min:
        -   -0.27846458554267883
        ori_max:
        -   51.75940704345703
    /model.22/cv2.1/cv2.1.2/Conv_output_0:
        qtype: asymmetric_quantized
        qmethod: layer
        dtype: int8
        min:
        -   -26.9965763092041
        max:
        -   26.824247360229492
        scale:
        -   0.21106205360562194
        zero_point:
        -   0
        ori_min:
        -   -26.9965763092041
        ori_max:
        -   26.824247360229492
    /model.22/cv3.1/cv3.1.0/conv/Conv_output_0:
        qtype: asymmetric_quantized
        qmethod: layer
        dtype: int8
        min:
        -   -13.081653594970703
        max:
        -   14.469096183776855
        scale:
        -   0.10804215599508847
        zero_point:
        -   -7
        ori_min:
        -   -13.081653594970703
        ori_max:
        -   14.469096183776855
    /model.22/cv3.1/cv3.1.0/act/Mul_output_0:
        qtype: asymmetric_quantized
        qmethod: layer
        dtype: int8
        min:
        -   -0.27846458554267883
        max:
        -   14.46908950805664
        scale:
        -   0.05783354546509537
        zero_point:
        -   -123
        ori_min:
        -   -0.27846458554267883
        ori_max:
        -   14.46908950805664
    /model.22/cv3.1/cv3.1.1/conv/Conv_output_0:
        qtype: asymmetric_quantized
        qmethod: layer
        dtype: int8
        min:
        -   -19.045766830444336
        max:
        -   19.348533630371094
        scale:
        -   0.1505658841600605
        zero_point:
        -   -2
        ori_min:
        -   -19.045766830444336
        ori_max:
        -   19.348533630371094
    /model.22/cv3.1/cv3.1.1/act/Mul_output_0:
        qtype: asymmetric_quantized
        qmethod: layer
        dtype: int8
        min:
        -   -0.27846458554267883
        max:
        -   19.348533630371094
        scale:
        -   0.07696862045456382
        zero_point:
        -   -124
        ori_min:
        -   -0.27846458554267883
        ori_max:
        -   19.348533630371094
    /model.22/cv3.1/cv3.1.2/Conv_output_0:
        qtype: asymmetric_quantized
        qmethod: layer
        dtype: int8
        min:
        -   -26.9965763092041
        max:
        -   3.7270917892456055
        scale:
        -   0.12048497293509688
        zero_point:
        -   96
        ori_min:
        -   -45.77275466918945
        ori_max:
        -   3.7270917892456055
    /model.22/Concat_1_output_0:
        qtype: asymmetric_quantized
        qmethod: layer
        dtype: int8
        min:
        -   -26.9965763092041
        max:
        -   26.824247360229492
        scale:
        -   0.21106205360562194
        zero_point:
        -   0
        ori_min:
        -   -45.77275466918945
        ori_max:
        -   26.824247360229492
    /model.22/Reshape_1_output_0_shape4_/model.22/Concat_3:
        qtype: asymmetric_quantized
        qmethod: layer
        dtype: int8
        min:
        -   -26.9965763092041
        max:
        -   26.824247360229492
        scale:
        -   0.21106205360562194
        zero_point:
        -   0
        ori_min:
        -   -45.77275466918945
        ori_max:
        -   26.824247360229492
    /model.22/cv2.0/cv2.0.0/conv/Conv_output_0:
        qtype: asymmetric_quantized
        qmethod: layer
        dtype: int8
        min:
        -   -14.505084991455078
        max:
        -   16.00690269470215
        scale:
        -   0.1196548536712048
        zero_point:
        -   -7
        ori_min:
        -   -14.505084991455078
        ori_max:
        -   16.00690269470215
    /model.22/cv2.0/cv2.0.0/act/Mul_output_0:
        qtype: asymmetric_quantized
        qmethod: layer
        dtype: int8
        min:
        -   -0.27846458554267883
        max:
        -   16.006900787353516
        scale:
        -   0.06386417793292626
        zero_point:
        -   -124
        ori_min:
        -   -0.27846458554267883
        ori_max:
        -   16.006900787353516
    /model.22/cv2.0/cv2.0.1/conv/Conv_output_0:
        qtype: asymmetric_quantized
        qmethod: layer
        dtype: int8
        min:
        -   -44.3973274230957
        max:
        -   44.765869140625
        scale:
        -   0.3496595943675322
        zero_point:
        -   -1
        ori_min:
        -   -44.3973274230957
        ori_max:
        -   44.765869140625
    /model.22/cv2.0/cv2.0.1/act/Mul_output_0:
        qtype: asymmetric_quantized
        qmethod: layer
        dtype: int8
        min:
        -   -0.27846458554267883
        max:
        -   44.765869140625
        scale:
        -   0.17664444598497128
        zero_point:
        -   -126
        ori_min:
        -   -0.27846458554267883
        ori_max:
        -   44.765869140625
    /model.22/cv2.0/cv2.0.2/Conv_output_0:
        qtype: asymmetric_quantized
        qmethod: layer
        dtype: int8
        min:
        -   -26.958026885986328
        max:
        -   23.38876724243164
        scale:
        -   0.19743840834673712
        zero_point:
        -   9
        ori_min:
        -   -26.958026885986328
        ori_max:
        -   23.38876724243164
    /model.22/cv3.0/cv3.0.0/conv/Conv_output_0:
        qtype: asymmetric_quantized
        qmethod: layer
        dtype: int8
        min:
        -   -14.179046630859375
        max:
        -   11.279745101928711
        scale:
        -   0.09983839895211014
        zero_point:
        -   14
        ori_min:
        -   -14.179046630859375
        ori_max:
        -   11.279745101928711
    /model.22/cv3.0/cv3.0.0/act/Mul_output_0:
        qtype: asymmetric_quantized
        qmethod: layer
        dtype: int8
        min:
        -   -0.27846458554267883
        max:
        -   11.279603004455566
        scale:
        -   0.04532575525489508
        zero_point:
        -   -122
        ori_min:
        -   -0.27846458554267883
        ori_max:
        -   11.279603004455566
    /model.22/cv3.0/cv3.0.1/conv/Conv_output_0:
        qtype: asymmetric_quantized
        qmethod: layer
        dtype: int8
        min:
        -   -17.84763526916504
        max:
        -   18.04108428955078
        scale:
        -   0.14074007670084634
        zero_point:
        -   -1
        ori_min:
        -   -17.84763526916504
        ori_max:
        -   18.04108428955078
    /model.22/cv3.0/cv3.0.1/act/Mul_output_0:
        qtype: asymmetric_quantized
        qmethod: layer
        dtype: int8
        min:
        -   -0.27846458554267883
        max:
        -   18.04108428955078
        scale:
        -   0.07184136813762142
        zero_point:
        -   -124
        ori_min:
        -   -0.27846458554267883
        ori_max:
        -   18.04108428955078
    /model.22/cv3.0/cv3.0.2/Conv_output_0:
        qtype: asymmetric_quantized
        qmethod: layer
        dtype: int8
        min:
        -   -26.9965763092041
        max:
        -   2.8187026977539062
        scale:
        -   0.11692266277238435
        zero_point:
        -   103
        ori_min:
        -   -45.50656509399414
        ori_max:
        -   2.8187026977539062
    /model.22/Concat_output_0:
        qtype: asymmetric_quantized
        qmethod: layer
        dtype: int8
        min:
        -   -26.9965763092041
        max:
        -   23.38876724243164
        scale:
        -   0.1975895825554343
        zero_point:
        -   9
        ori_min:
        -   -45.50656509399414
        ori_max:
        -   23.38876724243164
    /model.22/Reshape_output_0_shape4_/model.22/Concat_3:
        qtype: asymmetric_quantized
        qmethod: layer
        dtype: int8
        min:
        -   -26.9965763092041
        max:
        -   23.38876724243164
        scale:
        -   0.1975895825554343
        zero_point:
        -   9
        ori_min:
        -   -45.50656509399414
        ori_max:
        -   23.38876724243164
    /model.22/Concat_3_output_0:
        qtype: asymmetric_quantized
        qmethod: layer
        dtype: int8
        min:
        -   -26.9965763092041
        max:
        -   26.824247360229492
        scale:
        -   0.21106205360562194
        zero_point:
        -   0
        ori_min:
        -   -45.77275466918945
        ori_max:
        -   26.824247360229492
    /model.22/Split_output_0_shape4:
        qtype: asymmetric_quantized
        qmethod: layer
        dtype: int8
        min:
        -   -26.9965763092041
        max:
        -   26.824247360229492
        scale:
        -   0.21106205360562194
        zero_point:
        -   0
        ori_min:
        -   -26.9965763092041
        ori_max:
        -   26.824247360229492
    /model.22/Split_output_1:
        qtype: asymmetric_quantized
        qmethod: layer
        dtype: int8
        min:
        -   -7.0
        max:
        -   5.649462699890137
        scale:
        -   0.049605736078000534
        zero_point:
        -   13
        ori_min:
        -   -45.77275466918945
        ori_max:
        -   5.649462699890137
    /model.22/dfl/Reshape_output_0:
        qtype: asymmetric_quantized
        qmethod: layer
        dtype: int8
        min:
        -   -26.9965763092041
        max:
        -   26.824247360229492
        scale:
        -   0.21106205360562194
        zero_point:
        -   0
        ori_min:
        -   -26.9965763092041
        ori_max:
        -   26.824247360229492
    /model.22/dfl/Transpose_output_0:
        qtype: asymmetric_quantized
        qmethod: layer
        dtype: int8
        min:
        -   -26.9965763092041
        max:
        -   26.824247360229492
        scale:
        -   0.21106205360562194
        zero_point:
        -   0
        ori_min:
        -   -26.9965763092041
        ori_max:
        -   26.824247360229492
    /model.22/dfl/Softmax_output_0:
        qtype: asymmetric_quantized
        qmethod: layer
        dtype: int8
        min:
        -   0.0
        max:
        -   0.9992971420288086
        scale:
        -   0.003918812321681602
        zero_point:
        -   -128
        ori_min:
        -   3.5962571225692856e-24
        ori_max:
        -   0.9992971420288086
    /model.22/dfl/Transpose_1_output_0:
        qtype: asymmetric_quantized
        qmethod: layer
        dtype: int8
        min:
        -   0.0
        max:
        -   0.9992971420288086
        scale:
        -   0.003918812321681602
        zero_point:
        -   -128
        ori_min:
        -   3.5962571225692856e-24
        ori_max:
        -   0.9992971420288086
    /model.22/dfl/conv/Conv_output_0:
        qtype: asymmetric_quantized
        qmethod: layer
        dtype: int8
        min:
        -   0.0
        max:
        -   8.754619598388672
        scale:
        -   0.034331841562308514
        zero_point:
        -   -128
        ori_min:
        -   0.006261742673814297
        ori_max:
        -   8.754619598388672
    /model.22/dfl/Reshape_1_output_0_shape4_/model.22/Slice_2split_conv_/model.22/Slice_2split:
        qtype: asymmetric_quantized
        qmethod: layer
        dtype: int8
        min:
        -   0.0
        max:
        -   8.754619598388672
        scale:
        -   0.034331841562308514
        zero_point:
        -   -128
        ori_min:
        -   0.0
        ori_max:
        -   8.754619598388672
    /model.22/Slice_output_0_shape4_before_conv:
        qtype: asymmetric_quantized
        qmethod: layer
        dtype: int8
        min:
        -   0.0
        max:
        -   8.754619598388672
        scale:
        -   0.034331841562308514
        zero_point:
        -   -128
        ori_min:
        -   0.0
        ori_max:
        -   8.754619598388672
    /model.22/Slice_1_output_0:
        qtype: asymmetric_quantized
        qmethod: layer
        dtype: int8
        min:
        -   0.0
        max:
        -   8.195516586303711
        scale:
        -   0.032139280730602786
        zero_point:
        -   -128
        ori_min:
        -   0.00706826988607645
        ori_max:
        -   8.195516586303711
    /model.22/Slice_output_0:
        qtype: asymmetric_quantized
        qmethod: layer
        dtype: int8
        min:
        -   0.0
        max:
        -   8.754619598388672
        scale:
        -   0.034331841562308514
        zero_point:
        -   -128
        ori_min:
        -   0.006261742673814297
        ori_max:
        -   8.754619598388672
    /model.22/Sub_output_0:
        qtype: asymmetric_quantized
        qmethod: layer
        dtype: int8
        min:
        -   -5.521830081939697
        max:
        -   79.45986938476562
        scale:
        -   0.3332615665360993
        zero_point:
        -   -111
        ori_min:
        -   -5.521830081939697
        ori_max:
        -   79.45986938476562
    /model.22/Add_1_output_0:
        qtype: asymmetric_quantized
        qmethod: layer
        dtype: int8
        min:
        -   0.0
        max:
        -   82.2315673828125
        scale:
        -   0.3224767348345588
        zero_point:
        -   -128
        ori_min:
        -   0.5140507221221924
        ori_max:
        -   82.2315673828125
    /model.22/Sub_1_output_0:
        qtype: asymmetric_quantized
        qmethod: layer
        dtype: int8
        min:
        -   0.0
        max:
        -   16.30794334411621
        scale:
        -   0.06395271899653417
        zero_point:
        -   -128
        ori_min:
        -   0.08019781112670898
        ori_max:
        -   16.30794334411621
    /model.22/Add_2_output_0:
        qtype: asymmetric_quantized
        qmethod: layer
        dtype: int8
        min:
        -   -0.8234853744506836
        max:
        -   159.79928588867188
        scale:
        -   0.6298932206396963
        zero_point:
        -   -127
        ori_min:
        -   -0.8234853744506836
        ori_max:
        -   159.79928588867188
    /model.22/Div_1_output_0_conv_/model.22/Concat_4:
        qtype: asymmetric_quantized
        qmethod: layer
        dtype: int8
        min:
        -   -0.4117426872253418
        max:
        -   79.89964294433594
        scale:
        -   0.31494661031984816
        zero_point:
        -   -127
        ori_min:
        -   -0.4117426872253418
        ori_max:
        -   79.89964294433594
    /model.22/Concat_4_output_0_shape4_/model.22/Mul_2_before_conv:
        qtype: asymmetric_quantized
        qmethod: layer
        dtype: int8
        min:
        -   -0.4117426872253418
        max:
        -   79.89964294433594
        scale:
        -   0.31494661031984816
        zero_point:
        -   -127
        ori_min:
        -   -0.4117426872253418
        ori_max:
        -   79.89964294433594
    /model.22/Concat_4_output_0_shape4_/model.22/Mul_2:
        qtype: asymmetric_quantized
        qmethod: layer
        dtype: int8
        min:
        -   -0.4117426872253418
        max:
        -   79.89964294433594
        scale:
        -   0.31494661031984816
        zero_point:
        -   -127
        ori_min:
        -   -0.4117426872253418
        ori_max:
        -   79.89964294433594
    /model.22/Mul_2_output_0:
        qtype: asymmetric_quantized
        qmethod: layer
        dtype: int8
        min:
        -   -13.175765991210938
        max:
        -   639.1971435546875
        scale:
        -   2.5583251354741114
        zero_point:
        -   -123
        ori_min:
        -   -13.175765991210938
        ori_max:
        -   639.1971435546875
    /model.22/Concat_5_swap_concat_reshape_i0_out:
        qtype: asymmetric_quantized
        qmethod: layer
        dtype: int8
        min:
        -   -13.175765991210938
        max:
        -   639.1971435546875
        scale:
        -   2.5583251354741114
        zero_point:
        -   -123
        ori_min:
        -   -13.175765991210938
        ori_max:
        -   639.1971435546875
    /model.22/Sigmoid_output_0:
        qtype: asymmetric_quantized
        qmethod: layer
        dtype: int8
        min:
        -   0.0
        max:
        -   0.9964929223060608
        scale:
        -   0.003907815381592395
        zero_point:
        -   -128
        ori_min:
        -   0.0
        ori_max:
        -   0.9964929223060608
    /model.22/Concat_5_swap_concat_reshape_i1_out:
        qtype: asymmetric_quantized
        qmethod: layer
        dtype: int8
        min:
        -   0.0
        max:
        -   0.9964929223060608
        scale:
        -   0.003907815381592395
        zero_point:
        -   -128
        ori_min:
        -   0.0
        ori_max:
        -   0.9964929223060608
    output0_shape4:
        qtype: asymmetric_quantized
        qmethod: layer
        dtype: int8
        min:
        -   -13.175765991210938
        max:
        -   639.1971435546875
        scale:
        -   2.5583251354741114
        zero_point:
        -   -123
        ori_min:
        -   -13.175765991210938
        ori_max:
        -   639.1971435546875
    output0:
        qtype: asymmetric_quantized
        qmethod: layer
        dtype: float32
        min:
        -   -13.175765991210938
        max:
        -   639.1971435546875
        scale: []
        zero_point: []
        ori_min:
        -   -13.175765991210938
        ori_max:
        -   639.1971435546875
    /model.22/Constant_9_output_0:
        qtype: symmetric_quantized
        qmethod: layer
        dtype: int32
        min:
        -   -79.5
        max:
        -   79.5
        scale:
        -   3.702007234096527e-08
        zero_point:
        -   0
        ori_min:
        -   0.5
        ori_max:
        -   79.5
    /model.22/Constant_9_output_0_1:
        qtype: symmetric_quantized
        qmethod: layer
        dtype: int32
        min:
        -   -79.5
        max:
        -   79.5
        scale:
        -   3.702007234096527e-08
        zero_point:
        -   0
        ori_min:
        -   0.5
        ori_max:
        -   79.5
    /model.22/Constant_12_output_0:
        qtype: asymmetric_quantized
        qmethod: layer
        dtype: int16
        min:
        -   0.0
        max:
        -   32.0
        scale:
        -   0.0004882887006942855
        zero_point:
        -   -32768
        ori_min:
        -   8.0
        ori_max:
        -   32.0
    images_int8:
        qtype: asymmetric_quantized
        qmethod: layer
        dtype: int8
        min:
        -   0.0
        max:
        -   1.0
        scale:
        -   0.00392156862745098
        zero_point:
        -   -128
        ori_min:
        -   0.0
        ori_max:
        -   1.0
    output0_int8:
        qtype: asymmetric_quantized
        qmethod: layer
        dtype: int8
        min:
        -   -13.175765991210938
        max:
        -   639.1971435546875
        scale:
        -   2.5583251354741114
        zero_point:
        -   -123
        ori_min:
        -   -13.175765991210938
        ori_max:
        -   639.1971435546875
